const unsigned char trained_tflite[] = {
  0x1c, 0x00, 0x00, 0x00, 0x54, 0x46, 0x4c, 0x33, 0x00, 0x00, 0x12, 0x00,
  0x1c, 0x00, 0x04, 0x00, 0x08, 0x00, 0x0c, 0x00, 0x10, 0x00, 0x14, 0x00,
  0x00, 0x00, 0x18, 0x00, 0x12, 0x00, 0x00, 0x00, 0x03, 0x00, 0x00, 0x00,
  0x14, 0x00, 0x00, 0x00, 0x1c, 0x00, 0x00, 0x00, 0xa8, 0x00, 0x00, 0x00,
  0x1c, 0x00, 0x00, 0x00, 0x50, 0x00, 0x00, 0x00, 0x02, 0x00, 0x00, 0x00,
  0xb0, 0x03, 0x00, 0x00, 0x6c, 0x01, 0x00, 0x00, 0x01, 0x00, 0x00, 0x00,
  0xb0, 0x00, 0x00, 0x00, 0x0d, 0x00, 0x00, 0x00, 0x78, 0x15, 0x00, 0x00,
  0x74, 0x15, 0x00, 0x00, 0x9c, 0x14, 0x00, 0x00, 0x2c, 0x14, 0x00, 0x00,
  0xdc, 0x13, 0x00, 0x00, 0x0c, 0x09, 0x00, 0x00, 0x68, 0x05, 0x00, 0x00,
  0x44, 0x04, 0x00, 0x00, 0x58, 0x15, 0x00, 0x00, 0x54, 0x15, 0x00, 0x00,
  0x50, 0x15, 0x00, 0x00, 0x4c, 0x15, 0x00, 0x00, 0x38, 0x00, 0x00, 0x00,
  0x01, 0x00, 0x00, 0x00, 0x0c, 0x00, 0x00, 0x00, 0x08, 0x00, 0x0c, 0x00,
  0x04, 0x00, 0x08, 0x00, 0x08, 0x00, 0x00, 0x00, 0x08, 0x00, 0x00, 0x00,
  0x0c, 0x00, 0x00, 0x00, 0x13, 0x00, 0x00, 0x00, 0x6d, 0x69, 0x6e, 0x5f,
  0x72, 0x75, 0x6e, 0x74, 0x69, 0x6d, 0x65, 0x5f, 0x76, 0x65, 0x72, 0x73,
  0x69, 0x6f, 0x6e, 0x00, 0xca, 0xeb, 0xff, 0xff, 0x04, 0x00, 0x00, 0x00,
  0x10, 0x00, 0x00, 0x00, 0x31, 0x2e, 0x35, 0x2e, 0x30, 0x00, 0x00, 0x00,
  0x00, 0x00, 0x00, 0x00, 0x00, 0x00, 0x00, 0x00, 0x0f, 0x00, 0x00, 0x00,
  0x4d, 0x4c, 0x49, 0x52, 0x20, 0x43, 0x6f, 0x6e, 0x76, 0x65, 0x72, 0x74,
  0x65, 0x64, 0x2e, 0x00, 0x00, 0x00, 0x0e, 0x00, 0x18, 0x00, 0x04, 0x00,
  0x08, 0x00, 0x0c, 0x00, 0x10, 0x00, 0x14, 0x00, 0x0e, 0x00, 0x00, 0x00,
  0x14, 0x00, 0x00, 0x00, 0x40, 0x00, 0x00, 0x00, 0x44, 0x00, 0x00, 0x00,
  0x48, 0x00, 0x00, 0x00, 0x58, 0x00, 0x00, 0x00, 0x0b, 0x00, 0x00, 0x00,
  0x80, 0x14, 0x00, 0x00, 0x38, 0x14, 0x00, 0x00, 0xa0, 0x13, 0x00, 0x00,
  0x38, 0x13, 0x00, 0x00, 0xa8, 0x12, 0x00, 0x00, 0xd4, 0x07, 0x00, 0x00,
  0x30, 0x04, 0x00, 0x00, 0xc8, 0x02, 0x00, 0x00, 0xa0, 0x01, 0x00, 0x00,
  0xe4, 0x00, 0x00, 0x00, 0x7c, 0x00, 0x00, 0x00, 0x01, 0x00, 0x00, 0x00,
  0x00, 0x00, 0x00, 0x00, 0x01, 0x00, 0x00, 0x00, 0x0a, 0x00, 0x00, 0x00,
  0x04, 0x00, 0x00, 0x00, 0x50, 0x02, 0x00, 0x00, 0x48, 0x01, 0x00, 0x00,
  0x90, 0x00, 0x00, 0x00, 0x1c, 0x00, 0x00, 0x00, 0x04, 0x00, 0x00, 0x00,
  0x6d, 0x61, 0x69, 0x6e, 0x00, 0x00, 0x0e, 0x00, 0x18, 0x00, 0x08, 0x00,
  0x0c, 0x00, 0x10, 0x00, 0x07, 0x00, 0x14, 0x00, 0x0e, 0x00, 0x00, 0x00,
  0x00, 0x00, 0x00, 0x09, 0x01, 0x00, 0x00, 0x00, 0x1c, 0x00, 0x00, 0x00,
  0x10, 0x00, 0x00, 0x00, 0x04, 0x00, 0x00, 0x00, 0xa6, 0xec, 0xff, 0xff,
  0x00, 0x00, 0x80, 0x3f, 0x01, 0x00, 0x00, 0x00, 0x0a, 0x00, 0x00, 0x00,
  0x01, 0x00, 0x00, 0x00, 0x09, 0x00, 0x00, 0x00, 0xca, 0xfd, 0xff, 0xff,
  0x00, 0x00, 0x00, 0x19, 0x01, 0x00, 0x00, 0x00, 0x32, 0xec, 0xff, 0xff,
  0x10, 0x00, 0x00, 0x00, 0x0b, 0x00, 0x00, 0x00, 0x14, 0x00, 0x00, 0x00,
  0x20, 0x00, 0x00, 0x00, 0x02, 0x00, 0x00, 0x00, 0x01, 0x00, 0x00, 0x00,
  0x04, 0x00, 0x00, 0x00, 0x08, 0x00, 0x00, 0x00, 0x49, 0x64, 0x65, 0x6e,
  0x74, 0x69, 0x74, 0x79, 0x00, 0x00, 0x00, 0x00, 0x24, 0xec, 0xff, 0xff,
  0x5a, 0xff, 0xff, 0xff, 0x00, 0x00, 0x00, 0x08, 0x18, 0x00, 0x00, 0x00,
  0x0c, 0x00, 0x00, 0x00, 0x04, 0x00, 0x00, 0x00, 0x3c, 0xec, 0xff, 0xff,
  0x01, 0x00, 0x00, 0x00, 0x09, 0x00, 0x00, 0x00, 0x03, 0x00, 0x00, 0x00,
  0x08, 0x00, 0x00, 0x00, 0x06, 0x00, 0x00, 0x00, 0x03, 0x00, 0x00, 0x00,
  0x96, 0xec, 0xff, 0xff, 0x10, 0x00, 0x00, 0x00, 0x0a, 0x00, 0x00, 0x00,
  0x14, 0x00, 0x00, 0x00, 0x60, 0x00, 0x00, 0x00, 0x02, 0x00, 0x00, 0x00,
  0x01, 0x00, 0x00, 0x00, 0x04, 0x00, 0x00, 0x00, 0x4b, 0x00, 0x00, 0x00,
  0x73, 0x65, 0x71, 0x75, 0x65, 0x6e, 0x74, 0x69, 0x61, 0x6c, 0x2f, 0x79,
  0x5f, 0x70, 0x72, 0x65, 0x64, 0x2f, 0x42, 0x69, 0x61, 0x73, 0x41, 0x64,
  0x64, 0x3b, 0x53, 0x74, 0x61, 0x74, 0x65, 0x66, 0x75, 0x6c, 0x50, 0x61,
  0x72, 0x74, 0x69, 0x74, 0x69, 0x6f, 0x6e, 0x65, 0x64, 0x43, 0x61, 0x6c,
  0x6c, 0x2f, 0x73, 0x65, 0x71, 0x75, 0x65, 0x6e, 0x74, 0x69, 0x61, 0x6c,
  0x2f, 0x79, 0x5f, 0x70, 0x72, 0x65, 0x64, 0x2f, 0x42, 0x69, 0x61, 0x73,
  0x41, 0x64, 0x64, 0x00, 0x10, 0xed, 0xff, 0xff, 0x00, 0x00, 0x0e, 0x00,
  0x14, 0x00, 0x00, 0x00, 0x08, 0x00, 0x0c, 0x00, 0x07, 0x00, 0x10, 0x00,
  0x0e, 0x00, 0x00, 0x00, 0x00, 0x00, 0x00, 0x08, 0x1c, 0x00, 0x00, 0x00,
  0x10, 0x00, 0x00, 0x00, 0x04, 0x00, 0x00, 0x00, 0xfa, 0xfe, 0xff, 0xff,
  0x00, 0x00, 0x00, 0x01, 0x01, 0x00, 0x00, 0x00, 0x08, 0x00, 0x00, 0x00,
  0x03, 0x00, 0x00, 0x00, 0x07, 0x00, 0x00, 0x00, 0x05, 0x00, 0x00, 0x00,
  0x02, 0x00, 0x00, 0x00, 0x4e, 0xed, 0xff, 0xff, 0x10, 0x00, 0x00, 0x00,
  0x09, 0x00, 0x00, 0x00, 0x14, 0x00, 0x00, 0x00, 0xac, 0x00, 0x00, 0x00,
  0x02, 0x00, 0x00, 0x00, 0x01, 0x00, 0x00, 0x00, 0x0a, 0x00, 0x00, 0x00,
  0x95, 0x00, 0x00, 0x00, 0x73, 0x65, 0x71, 0x75, 0x65, 0x6e, 0x74, 0x69,
  0x61, 0x6c, 0x2f, 0x64, 0x65, 0x6e, 0x73, 0x65, 0x5f, 0x31, 0x2f, 0x52,
  0x65, 0x6c, 0x75, 0x3b, 0x53, 0x74, 0x61, 0x74, 0x65, 0x66, 0x75, 0x6c,
  0x50, 0x61, 0x72, 0x74, 0x69, 0x74, 0x69, 0x6f, 0x6e, 0x65, 0x64, 0x43,
  0x61, 0x6c, 0x6c, 0x2f, 0x73, 0x65, 0x71, 0x75, 0x65, 0x6e, 0x74, 0x69,
  0x61, 0x6c, 0x2f, 0x64, 0x65, 0x6e, 0x73, 0x65, 0x5f, 0x31, 0x2f, 0x52,
  0x65, 0x6c, 0x75, 0x3b, 0x73, 0x65, 0x71, 0x75, 0x65, 0x6e, 0x74, 0x69,
  0x61, 0x6c, 0x2f, 0x64, 0x65, 0x6e, 0x73, 0x65, 0x5f, 0x31, 0x2f, 0x42,
  0x69, 0x61, 0x73, 0x41, 0x64, 0x64, 0x3b, 0x53, 0x74, 0x61, 0x74, 0x65,
  0x66, 0x75, 0x6c, 0x50, 0x61, 0x72, 0x74, 0x69, 0x74, 0x69, 0x6f, 0x6e,
  0x65, 0x64, 0x43, 0x61, 0x6c, 0x6c, 0x2f, 0x73, 0x65, 0x71, 0x75, 0x65,
  0x6e, 0x74, 0x69, 0x61, 0x6c, 0x2f, 0x64, 0x65, 0x6e, 0x73, 0x65, 0x5f,
  0x31, 0x2f, 0x42, 0x69, 0x61, 0x73, 0x41, 0x64, 0x64, 0x00, 0x00, 0x00,
  0x14, 0xee, 0xff, 0xff, 0x00, 0x00, 0x0e, 0x00, 0x16, 0x00, 0x00, 0x00,
  0x08, 0x00, 0x0c, 0x00, 0x07, 0x00, 0x10, 0x00, 0x0e, 0x00, 0x00, 0x00,
  0x00, 0x00, 0x00, 0x08, 0x24, 0x00, 0x00, 0x00, 0x18, 0x00, 0x00, 0x00,
  0x0c, 0x00, 0x00, 0x00, 0x00, 0x00, 0x06, 0x00, 0x08, 0x00, 0x07, 0x00,
  0x06, 0x00, 0x00, 0x00, 0x00, 0x00, 0x00, 0x01, 0x01, 0x00, 0x00, 0x00,
  0x07, 0x00, 0x00, 0x00, 0x03, 0x00, 0x00, 0x00, 0x00, 0x00, 0x00, 0x00,
  0x04, 0x00, 0x00, 0x00, 0x01, 0x00, 0x00, 0x00, 0x00, 0x00, 0x0a, 0x00,
  0x0c, 0x00, 0x07, 0x00, 0x00, 0x00, 0x08, 0x00, 0x0a, 0x00, 0x00, 0x00,
  0x00, 0x00, 0x00, 0x09, 0x01, 0x00, 0x00, 0x00, 0x72, 0xee, 0xff, 0xff,
  0x10, 0x00, 0x00, 0x00, 0x08, 0x00, 0x00, 0x00, 0x14, 0x00, 0x00, 0x00,
  0xa4, 0x00, 0x00, 0x00, 0x02, 0x00, 0x00, 0x00, 0x01, 0x00, 0x00, 0x00,
  0x14, 0x00, 0x00, 0x00, 0x8d, 0x00, 0x00, 0x00, 0x73, 0x65, 0x71, 0x75,
  0x65, 0x6e, 0x74, 0x69, 0x61, 0x6c, 0x2f, 0x64, 0x65, 0x6e, 0x73, 0x65,
  0x2f, 0x52, 0x65, 0x6c, 0x75, 0x3b, 0x53, 0x74, 0x61, 0x74, 0x65, 0x66,
  0x75, 0x6c, 0x50, 0x61, 0x72, 0x74, 0x69, 0x74, 0x69, 0x6f, 0x6e, 0x65,
  0x64, 0x43, 0x61, 0x6c, 0x6c, 0x2f, 0x73, 0x65, 0x71, 0x75, 0x65, 0x6e,
  0x74, 0x69, 0x61, 0x6c, 0x2f, 0x64, 0x65, 0x6e, 0x73, 0x65, 0x2f, 0x52,
  0x65, 0x6c, 0x75, 0x3b, 0x73, 0x65, 0x71, 0x75, 0x65, 0x6e, 0x74, 0x69,
  0x61, 0x6c, 0x2f, 0x64, 0x65, 0x6e, 0x73, 0x65, 0x2f, 0x42, 0x69, 0x61,
  0x73, 0x41, 0x64, 0x64, 0x3b, 0x53, 0x74, 0x61, 0x74, 0x65, 0x66, 0x75,
  0x6c, 0x50, 0x61, 0x72, 0x74, 0x69, 0x74, 0x69, 0x6f, 0x6e, 0x65, 0x64,
  0x43, 0x61, 0x6c, 0x6c, 0x2f, 0x73, 0x65, 0x71, 0x75, 0x65, 0x6e, 0x74,
  0x69, 0x61, 0x6c, 0x2f, 0x64, 0x65, 0x6e, 0x73, 0x65, 0x2f, 0x42, 0x69,
  0x61, 0x73, 0x41, 0x64, 0x64, 0x00, 0x00, 0x00, 0xe8, 0xee, 0xff, 0xff,
  0xc2, 0xef, 0xff, 0xff, 0x04, 0x00, 0x00, 0x00, 0xa0, 0x00, 0x00, 0x00,
  0xd5, 0x59, 0x59, 0xbe, 0xf4, 0x69, 0x0e, 0xc0, 0x06, 0x14, 0x75, 0x3f,
  0xec, 0x6c, 0x9d, 0x3f, 0xc2, 0x0b, 0xc1, 0xbf, 0x3d, 0x13, 0x0a, 0xc0,
  0x4a, 0x29, 0xd7, 0xbf, 0x00, 0x28, 0xa8, 0xbc, 0x97, 0x07, 0x4d, 0x3f,
  0xcc, 0xc2, 0x9e, 0xbf, 0xde, 0x57, 0x14, 0x3f, 0xe0, 0xfb, 0x24, 0x3f,
  0xcc, 0x54, 0xf5, 0x3e, 0x54, 0xf2, 0x18, 0x3f, 0x48, 0xd9, 0x80, 0xbe,
  0xe6, 0xd0, 0xa9, 0xbb, 0xb9, 0x3e, 0x06, 0x3e, 0xd5, 0xad, 0xcc, 0xbe,
  0x62, 0xbf, 0xff, 0x3e, 0x87, 0x4f, 0x04, 0x3f, 0x5d, 0x7e, 0x6c, 0xbf,
  0x44, 0x05, 0x65, 0xbf, 0x1c, 0x9f, 0xdb, 0xbf, 0xd2, 0xc5, 0x56, 0x3e,
  0x37, 0x57, 0x18, 0x3f, 0x12, 0x19, 0x0d, 0x3f, 0xfa, 0xc0, 0x1f, 0x3f,
  0x90, 0x96, 0x8f, 0xbd, 0xe1, 0xef, 0x2f, 0x3e, 0x6b, 0x82, 0x1c, 0xbf,
  0xe3, 0xf4, 0x2b, 0xbf, 0xcb, 0x5d, 0x09, 0x3f, 0xa4, 0x26, 0x54, 0x3e,
  0xf8, 0xb9, 0x73, 0xbf, 0xee, 0xcb, 0xb3, 0x3e, 0x30, 0x8b, 0xc7, 0x3e,
  0x2c, 0xd4, 0xad, 0xbd, 0xa3, 0x58, 0xfa, 0xbe, 0x40, 0xf0, 0x95, 0xbf,
  0x7a, 0xbe, 0x8b, 0x3f, 0xd6, 0xef, 0xff, 0xff, 0x10, 0x00, 0x00, 0x00,
  0x07, 0x00, 0x00, 0x00, 0x14, 0x00, 0x00, 0x00, 0x60, 0x00, 0x00, 0x00,
  0x02, 0x00, 0x00, 0x00, 0x04, 0x00, 0x00, 0x00, 0x0a, 0x00, 0x00, 0x00,
  0x49, 0x00, 0x00, 0x00, 0x73, 0x65, 0x71, 0x75, 0x65, 0x6e, 0x74, 0x69,
  0x61, 0x6c, 0x2f, 0x79, 0x5f, 0x70, 0x72, 0x65, 0x64, 0x2f, 0x4d, 0x61,
  0x74, 0x4d, 0x75, 0x6c, 0x3b, 0x53, 0x74, 0x61, 0x74, 0x65, 0x66, 0x75,
  0x6c, 0x50, 0x61, 0x72, 0x74, 0x69, 0x74, 0x69, 0x6f, 0x6e, 0x65, 0x64,
  0x43, 0x61, 0x6c, 0x6c, 0x2f, 0x73, 0x65, 0x71, 0x75, 0x65, 0x6e, 0x74,
  0x69, 0x61, 0x6c, 0x2f, 0x79, 0x5f, 0x70, 0x72, 0x65, 0x64, 0x2f, 0x4d,
  0x61, 0x74, 0x4d, 0x75, 0x6c, 0x00, 0x00, 0x00, 0x08, 0xf0, 0xff, 0xff,
  0xe2, 0xf0, 0xff, 0xff, 0x04, 0x00, 0x00, 0x00, 0x20, 0x03, 0x00, 0x00,
  0x34, 0x96, 0xa3, 0xbe, 0x4c, 0x1c, 0xc9, 0xba, 0x2c, 0xaa, 0x74, 0x3e,
  0x86, 0xeb, 0x28, 0x3e, 0xd4, 0x71, 0xf3, 0x3e, 0xcd, 0xb7, 0x1c, 0xbe,
  0xd3, 0x6d, 0x86, 0xbd, 0x08, 0xbd, 0x9d, 0x3e, 0x4a, 0x88, 0xc5, 0xbe,
  0xef, 0x5a, 0xba, 0xbe, 0x73, 0x33, 0x86, 0xbe, 0x2a, 0x80, 0x94, 0xbe,
  0x07, 0x54, 0xc7, 0x3e, 0xe3, 0x92, 0xc8, 0x3e, 0x38, 0x87, 0xd9, 0xbc,
  0x3e, 0x6a, 0xcc, 0x3d, 0xac, 0xc9, 0xb2, 0xbe, 0xc7, 0xff, 0x22, 0xbd,
  0x3a, 0x96, 0xbe, 0xbd, 0x06, 0x81, 0xd6, 0x3d, 0x96, 0xf0, 0xd2, 0x3e,
  0xb5, 0xc7, 0x19, 0x3f, 0xf5, 0xe8, 0x2a, 0x3e, 0x4b, 0x5c, 0x04, 0x3f,
  0xf4, 0x6e, 0x93, 0x3d, 0x14, 0x19, 0xbe, 0x3e, 0xab, 0xa9, 0xf0, 0x3e,
  0x3a, 0x55, 0x7e, 0xbf, 0x00, 0x55, 0x90, 0x3e, 0x52, 0xbb, 0x92, 0xbc,
  0x04, 0xc8, 0xb0, 0x3d, 0xa7, 0xbe, 0x16, 0xbe, 0x24, 0xd8, 0x1a, 0xbd,
  0x75, 0xfd, 0x0f, 0xbd, 0x4b, 0xec, 0x15, 0xbf, 0x92, 0x78, 0xe0, 0xbe,
  0x28, 0xc4, 0x12, 0x3e, 0xa7, 0xb4, 0x14, 0x3f, 0x21, 0xf1, 0x09, 0x3f,
  0xe1, 0x2e, 0xb1, 0xbd, 0x36, 0x68, 0x42, 0xbf, 0x2f, 0x15, 0x0a, 0x3f,
  0x44, 0x0f, 0x51, 0xbc, 0x5e, 0x4a, 0x00, 0xbf, 0xa3, 0x55, 0x3d, 0x3f,
  0xcc, 0x63, 0xb5, 0x3d, 0x5b, 0x9e, 0xc7, 0x3e, 0xde, 0xcb, 0x91, 0x3c,
  0x0b, 0xeb, 0x2d, 0x3f, 0xc1, 0xba, 0x3c, 0xbd, 0x1a, 0xa0, 0x1f, 0x3e,
  0xaa, 0xb4, 0x1b, 0x3d, 0xf8, 0x84, 0x77, 0x3e, 0xcc, 0x0a, 0x1e, 0xbf,
  0xb6, 0x98, 0xe6, 0x3e, 0x17, 0x79, 0xb4, 0xbd, 0x1b, 0xe2, 0x30, 0xbe,
  0xb1, 0x18, 0xab, 0x3f, 0x52, 0x64, 0x2c, 0xbf, 0x92, 0x1c, 0x39, 0xbe,
  0x7a, 0x78, 0x1c, 0xbf, 0x9e, 0x22, 0x01, 0xbf, 0x2c, 0xc8, 0xc1, 0xbe,
  0x11, 0x4d, 0xbf, 0xbe, 0x53, 0x61, 0x29, 0x3f, 0x8b, 0x52, 0x7e, 0x3e,
  0x8d, 0xa0, 0x8e, 0x3e, 0xf5, 0x29, 0x2c, 0x3f, 0x87, 0xc2, 0x8f, 0x3e,
  0x11, 0x78, 0x21, 0xbf, 0x2f, 0x0b, 0x92, 0x3f, 0xe6, 0xca, 0x74, 0x3e,
  0x28, 0x03, 0x27, 0x3c, 0xa1, 0xb9, 0xc6, 0xbe, 0xd5, 0xc2, 0x7d, 0x3f,
  0x56, 0x9d, 0x17, 0x3f, 0xa0, 0x8c, 0x81, 0x3b, 0x4d, 0xab, 0x5f, 0x3f,
  0xcc, 0xd1, 0x2f, 0x3e, 0xfa, 0x19, 0x03, 0xbf, 0x0f, 0xe0, 0x35, 0x3f,
  0xe6, 0xd9, 0x8f, 0x3f, 0x88, 0xf6, 0xcb, 0xbe, 0x0a, 0x1b, 0xab, 0x3d,
  0xad, 0xc7, 0x74, 0xbf, 0x9e, 0x55, 0x48, 0x3f, 0x60, 0xf4, 0x99, 0xbe,
  0x9d, 0xae, 0x09, 0xbd, 0xee, 0xfb, 0xfe, 0x3e, 0x38, 0x0c, 0xa6, 0x3f,
  0x10, 0x4a, 0x06, 0x3e, 0x36, 0x27, 0xba, 0xbe, 0x9f, 0x94, 0xf8, 0xbe,
  0xab, 0xb2, 0x35, 0x3f, 0x62, 0x75, 0x7d, 0x3e, 0xec, 0xce, 0x8c, 0x3d,
  0xdc, 0xc8, 0xdb, 0x3e, 0xef, 0x4b, 0x68, 0xbf, 0x63, 0xbc, 0x4e, 0x3f,
  0x06, 0x9d, 0x23, 0x3f, 0x69, 0x3b, 0xb1, 0x3f, 0x0a, 0xd7, 0xaa, 0x3f,
  0xaf, 0xf5, 0xdc, 0xbe, 0x96, 0x38, 0x42, 0x3f, 0x73, 0xdf, 0x7e, 0xbf,
  0xd3, 0xef, 0x13, 0x3f, 0x96, 0xeb, 0x8d, 0xbd, 0x37, 0x72, 0x6e, 0xbf,
  0xb6, 0x79, 0xb3, 0x3f, 0x6c, 0x86, 0xfa, 0x3e, 0xc2, 0x64, 0x99, 0xbe,
  0xa8, 0x3b, 0x97, 0x3e, 0x4c, 0x5f, 0xdb, 0xbe, 0x6f, 0x77, 0x7f, 0x3f,
  0x62, 0x0b, 0xba, 0xbe, 0x65, 0x19, 0xe4, 0x3e, 0x50, 0x76, 0x91, 0xbd,
  0xd7, 0x1d, 0x04, 0xbd, 0xca, 0xe4, 0x2d, 0x3d, 0x36, 0xd8, 0x8d, 0x3f,
  0xd6, 0xeb, 0x3d, 0x3f, 0x7a, 0xf9, 0x15, 0xbe, 0x09, 0xa2, 0x20, 0xbe,
  0x48, 0xcb, 0x0d, 0x3f, 0xbb, 0x3e, 0x07, 0x3e, 0x76, 0x0d, 0x18, 0xbe,
  0xd0, 0x27, 0xeb, 0xbd, 0xf3, 0x2c, 0xaa, 0x3e, 0x84, 0x05, 0x8d, 0x3e,
  0xef, 0xd3, 0x3c, 0x3f, 0x72, 0x2e, 0x0d, 0xbe, 0x32, 0x9b, 0x6b, 0x3e,
  0x6e, 0xb3, 0x28, 0xbf, 0xcd, 0x62, 0x0d, 0x3e, 0xe6, 0xc9, 0xa7, 0x3e,
  0x1a, 0x10, 0x20, 0x3d, 0xb3, 0x0d, 0x9c, 0x3e, 0xf5, 0x13, 0x23, 0xbf,
  0x4f, 0xb5, 0xc1, 0x3e, 0x5a, 0x60, 0x2b, 0xbe, 0x44, 0x03, 0x95, 0xbd,
  0x47, 0x49, 0x6f, 0x3e, 0x85, 0xbc, 0x64, 0xbe, 0xb7, 0x82, 0xcf, 0xbe,
  0x2a, 0x02, 0x18, 0xbd, 0xae, 0x9e, 0x84, 0xbe, 0x10, 0x0d, 0x21, 0xbe,
  0xbd, 0x6c, 0x99, 0xbe, 0xd0, 0xba, 0x47, 0x3e, 0xb9, 0xe2, 0x1b, 0x3e,
  0xa9, 0x3e, 0x9f, 0x3e, 0x32, 0x63, 0xbc, 0x3e, 0x3a, 0x2c, 0xd1, 0xbd,
  0x16, 0xe3, 0xa8, 0xbc, 0x87, 0xab, 0x05, 0xbe, 0xa1, 0x67, 0x65, 0xbe,
  0x8e, 0x40, 0x9d, 0xbe, 0xb5, 0x7f, 0x4c, 0xbd, 0xf8, 0x88, 0x6e, 0xbe,
  0xbf, 0xc5, 0xbc, 0x3d, 0x71, 0x80, 0x0d, 0xbf, 0xae, 0xec, 0xf9, 0xbd,
  0x4e, 0x3a, 0xb8, 0x3d, 0x77, 0xe6, 0x88, 0x3e, 0x25, 0x8c, 0x5d, 0x3f,
  0x29, 0x62, 0xc2, 0x3d, 0x74, 0xa3, 0x28, 0x3e, 0xaf, 0x92, 0x19, 0xbe,
  0xe5, 0xbb, 0x16, 0xba, 0x9f, 0x17, 0x08, 0xbf, 0x1d, 0xe6, 0x42, 0x3f,
  0x51, 0xab, 0xc7, 0x3e, 0xac, 0x38, 0xa6, 0x3e, 0x33, 0xd2, 0xba, 0x3e,
  0x3f, 0xe0, 0x29, 0x3f, 0xe9, 0x47, 0xa1, 0x3e, 0x3f, 0x6e, 0xb6, 0xbe,
  0x87, 0xca, 0x7b, 0x3f, 0xb7, 0x76, 0x55, 0x3d, 0x97, 0x5a, 0xca, 0xbd,
  0xfe, 0x91, 0x68, 0x3c, 0x54, 0x94, 0x75, 0x3f, 0xfe, 0x5f, 0xfd, 0x3d,
  0x4e, 0xc3, 0xb7, 0x3e, 0xf5, 0x63, 0xa8, 0xbe, 0x32, 0x2e, 0x1e, 0x3f,
  0x2d, 0x44, 0xf8, 0x3e, 0xd8, 0xd1, 0x2d, 0xbf, 0x24, 0x0c, 0x16, 0x3f,
  0xab, 0x6d, 0x22, 0x3e, 0x61, 0x1a, 0x8f, 0xbe, 0xf7, 0x3c, 0x7a, 0x3e,
  0x37, 0x13, 0x6b, 0xbe, 0x76, 0x58, 0x4e, 0xbe, 0x62, 0x0d, 0x5b, 0xbf,
  0x5a, 0x83, 0x1f, 0x3e, 0xf4, 0xe3, 0x34, 0x3f, 0x78, 0x31, 0x39, 0x3f,
  0x38, 0xff, 0x5c, 0x3e, 0x18, 0xc1, 0x2a, 0x3f, 0x76, 0xf3, 0xff, 0xff,
  0x10, 0x00, 0x00, 0x00, 0x06, 0x00, 0x00, 0x00, 0x14, 0x00, 0x00, 0x00,
  0x60, 0x00, 0x00, 0x00, 0x02, 0x00, 0x00, 0x00, 0x0a, 0x00, 0x00, 0x00,
  0x14, 0x00, 0x00, 0x00, 0x4b, 0x00, 0x00, 0x00, 0x73, 0x65, 0x71, 0x75,
  0x65, 0x6e, 0x74, 0x69, 0x61, 0x6c, 0x2f, 0x64, 0x65, 0x6e, 0x73, 0x65,
  0x5f, 0x31, 0x2f, 0x4d, 0x61, 0x74, 0x4d, 0x75, 0x6c, 0x3b, 0x53, 0x74,
  0x61, 0x74, 0x65, 0x66, 0x75, 0x6c, 0x50, 0x61, 0x72, 0x74, 0x69, 0x74,
  0x69, 0x6f, 0x6e, 0x65, 0x64, 0x43, 0x61, 0x6c, 0x6c, 0x2f, 0x73, 0x65,
  0x71, 0x75, 0x65, 0x6e, 0x74, 0x69, 0x61, 0x6c, 0x2f, 0x64, 0x65, 0x6e,
  0x73, 0x65, 0x5f, 0x31, 0x2f, 0x4d, 0x61, 0x74, 0x4d, 0x75, 0x6c, 0x00,
  0xa8, 0xf3, 0xff, 0xff, 0x82, 0xf4, 0xff, 0xff, 0x04, 0x00, 0x00, 0x00,
  0x50, 0x0a, 0x00, 0x00, 0xa1, 0x50, 0x94, 0x3f, 0xf0, 0xb0, 0xb7, 0xbd,
  0x2e, 0x92, 0x2f, 0x3e, 0x03, 0x1b, 0x5c, 0x3d, 0x88, 0xec, 0x2f, 0x3e,
  0x47, 0xdd, 0xc0, 0x3d, 0xc1, 0x49, 0x5c, 0xbe, 0x8e, 0x7a, 0x78, 0xbe,
  0x1f, 0x24, 0x86, 0x3f, 0x99, 0x19, 0x2d, 0x3f, 0x38, 0x18, 0x5f, 0x3f,
  0xac, 0xe1, 0x8c, 0x3f, 0x27, 0xae, 0x70, 0xbe, 0x10, 0x59, 0x25, 0x3f,
  0x64, 0xf9, 0xea, 0x3d, 0x6d, 0x42, 0xc1, 0xbc, 0x88, 0xf9, 0x66, 0x3e,
  0x01, 0x9a, 0x6b, 0xbe, 0x4e, 0x01, 0x68, 0x3e, 0x3d, 0x22, 0x96, 0x3f,
  0x49, 0x7f, 0xcf, 0x3e, 0xf7, 0x14, 0x0f, 0xbe, 0x6f, 0xa6, 0xe7, 0x3f,
  0x59, 0xc4, 0xbb, 0xbe, 0x5c, 0x13, 0x5d, 0x3f, 0x7e, 0xab, 0xfd, 0xbc,
  0xee, 0x6c, 0xa5, 0xbe, 0xd9, 0x53, 0x68, 0x3e, 0xc2, 0x94, 0x3e, 0xbd,
  0x0a, 0x47, 0xef, 0xbd, 0xc6, 0xf0, 0xb5, 0x3f, 0xdc, 0x15, 0x47, 0x3f,
  0xa9, 0x66, 0x8c, 0x3f, 0x47, 0xf4, 0x9f, 0x3f, 0xf8, 0xb5, 0x68, 0x3d,
  0x31, 0x4c, 0x57, 0x3e, 0xca, 0xdd, 0xad, 0x3c, 0x47, 0x2e, 0xbf, 0x3e,
  0x57, 0x0f, 0xb0, 0x3e, 0xef, 0x08, 0x7c, 0x3e, 0xf9, 0xb1, 0x8b, 0x3e,
  0xb4, 0xb0, 0x5f, 0x3f, 0x3d, 0xc2, 0xb0, 0x3f, 0x33, 0xe5, 0x94, 0x3f,
  0xb2, 0x7e, 0x5e, 0x3f, 0x8f, 0x86, 0x35, 0x3d, 0x84, 0x60, 0x0f, 0xbf,
  0xd0, 0xeb, 0x95, 0xbb, 0x0f, 0x14, 0x06, 0xbe, 0x9c, 0x10, 0x8a, 0xbe,
  0x8c, 0x96, 0xd4, 0xbe, 0x0e, 0xe9, 0x6b, 0x3e, 0xee, 0x5f, 0x51, 0x3f,
  0x8d, 0x1a, 0x6d, 0x3f, 0xfb, 0x4b, 0x27, 0x3f, 0xaa, 0x12, 0x89, 0x3e,
  0x3e, 0x3f, 0x06, 0xbf, 0xce, 0xe2, 0x13, 0x3e, 0x5e, 0xca, 0x32, 0xbe,
  0x2f, 0xf9, 0xc7, 0x3d, 0x81, 0x3e, 0x20, 0xbc, 0x3e, 0x44, 0xbb, 0xbe,
  0x10, 0xcb, 0x95, 0x3c, 0xce, 0xc9, 0x54, 0x3f, 0x3b, 0xcd, 0x90, 0x3f,
  0x7d, 0x8c, 0xf2, 0x3d, 0x33, 0xfc, 0x7c, 0x3e, 0x92, 0x19, 0x93, 0xbe,
  0xb0, 0x27, 0x5a, 0xbd, 0xc3, 0x5a, 0xc5, 0x3e, 0xbf, 0xec, 0x09, 0x3e,
  0x40, 0x01, 0x03, 0x3e, 0x1f, 0xdf, 0x84, 0xbe, 0x34, 0x98, 0xa1, 0xbd,
  0xec, 0x3c, 0x81, 0x3e, 0x15, 0xeb, 0xb8, 0x3e, 0xae, 0xe9, 0xa7, 0xbd,
  0x19, 0x65, 0x17, 0xbe, 0x4f, 0x23, 0x39, 0xbe, 0x24, 0xdf, 0x11, 0xbe,
  0x69, 0xb7, 0xa0, 0x3d, 0x1e, 0x95, 0x60, 0xbe, 0x74, 0xd2, 0x03, 0xbe,
  0x28, 0x82, 0x61, 0x3c, 0xb5, 0x6e, 0x8d, 0x3e, 0xed, 0x2e, 0xb3, 0xbe,
  0x70, 0x65, 0x0e, 0x3f, 0x82, 0x72, 0xbf, 0xbc, 0x40, 0x61, 0xe6, 0xbe,
  0xcd, 0x40, 0x23, 0x3d, 0x53, 0x9e, 0xeb, 0xbe, 0xda, 0x85, 0x7d, 0x3e,
  0x05, 0xc4, 0x62, 0xbe, 0x54, 0x31, 0x9f, 0xbe, 0x93, 0xdf, 0x65, 0xbe,
  0x73, 0x92, 0x4c, 0xbe, 0xf3, 0xe7, 0xbd, 0xbe, 0x48, 0x95, 0x62, 0x3e,
  0xe2, 0x91, 0xe4, 0xbe, 0xfd, 0x6c, 0x97, 0x3f, 0xf2, 0xea, 0x5e, 0xbe,
  0x7b, 0x1f, 0xcd, 0xbe, 0xb1, 0xe3, 0xa3, 0x3e, 0x79, 0xae, 0x62, 0x3e,
  0x22, 0x5e, 0x9a, 0x3d, 0x94, 0xd8, 0x7c, 0xbe, 0x50, 0x97, 0x51, 0x3d,
  0xbc, 0x7f, 0xfd, 0x3e, 0xaa, 0x93, 0x90, 0x3f, 0x2f, 0xb1, 0x65, 0x3f,
  0x05, 0xe7, 0xb6, 0x3f, 0xb8, 0xca, 0xa2, 0x3e, 0xf7, 0x86, 0x26, 0x3f,
  0xb5, 0x5f, 0xe7, 0xbc, 0xb8, 0x35, 0xbe, 0xbe, 0x4b, 0x39, 0x0a, 0xbe,
  0x88, 0x71, 0x32, 0xbe, 0x25, 0xa6, 0xa0, 0x3e, 0x3b, 0x4b, 0xa7, 0x3f,
  0x66, 0x7b, 0x7a, 0x3f, 0x43, 0x26, 0x7e, 0x3f, 0x94, 0xb4, 0x9a, 0x3f,
  0x47, 0x65, 0x54, 0x3e, 0xf1, 0xe8, 0xad, 0xbc, 0xc0, 0xee, 0x35, 0x3e,
  0xf0, 0xf3, 0xa0, 0xbe, 0x4f, 0x3c, 0x47, 0xbe, 0xe8, 0x18, 0x17, 0x3e,
  0x70, 0xf0, 0x7a, 0x3d, 0x9a, 0xb4, 0xd1, 0x3e, 0x32, 0x2c, 0x9d, 0x3f,
  0xfc, 0xee, 0x00, 0x3f, 0xc3, 0x4e, 0x32, 0xbf, 0xc8, 0x50, 0xba, 0x3e,
  0xe5, 0xcf, 0x78, 0xbe, 0x2e, 0xf7, 0x5a, 0x3e, 0x28, 0xdf, 0xce, 0xbd,
  0x65, 0x0b, 0x6e, 0x3e, 0x41, 0xf3, 0xa2, 0xbe, 0x63, 0xea, 0x04, 0xbe,
  0xed, 0xe4, 0x43, 0xbf, 0x08, 0xaf, 0x5c, 0xbe, 0x5b, 0x53, 0xfe, 0xbd,
  0xac, 0xfa, 0xfa, 0xbe, 0x4d, 0xbc, 0x5e, 0x3d, 0x26, 0x99, 0x7c, 0x3e,
  0x77, 0xde, 0x90, 0xbd, 0xe4, 0xfb, 0xd4, 0x3e, 0x48, 0x14, 0x7c, 0xbe,
  0xe2, 0x67, 0x9f, 0xbe, 0x20, 0x5e, 0x9b, 0x3d, 0x0e, 0x6d, 0x82, 0xbf,
  0x2a, 0x9c, 0x0e, 0x3f, 0xae, 0x25, 0xe8, 0x3d, 0xa9, 0xca, 0x68, 0xbf,
  0x9e, 0x19, 0x4a, 0x3e, 0xd8, 0x06, 0x06, 0xbf, 0x33, 0xb1, 0xca, 0xbd,
  0x41, 0x9c, 0xf7, 0x3e, 0x83, 0x45, 0xdb, 0x3d, 0x52, 0x45, 0x96, 0x3e,
  0x80, 0x39, 0x45, 0xbb, 0xa6, 0x07, 0x7d, 0xbf, 0xd0, 0x91, 0x57, 0xbf,
  0x6b, 0x18, 0x3b, 0xbf, 0x0b, 0xfc, 0x9e, 0x3f, 0xc3, 0xa5, 0xc6, 0x3d,
  0x80, 0xc5, 0x9c, 0x3e, 0xd0, 0x5b, 0xb7, 0x3d, 0xa0, 0xfe, 0x72, 0x3e,
  0x01, 0xb0, 0x65, 0x3e, 0x01, 0x66, 0x3c, 0x3e, 0xf8, 0xf1, 0xe4, 0x3d,
  0x99, 0x99, 0x36, 0x3f, 0x75, 0x1a, 0x3b, 0x3f, 0x4e, 0x39, 0x38, 0x3f,
  0x29, 0x1e, 0x87, 0x3f, 0x64, 0xdf, 0x27, 0x3f, 0x35, 0x42, 0xe5, 0x3d,
  0x3e, 0x51, 0xb3, 0x3e, 0xf7, 0x94, 0x70, 0x3d, 0xff, 0x79, 0x53, 0xbe,
  0x4c, 0xf1, 0xe9, 0x3b, 0x9e, 0xd4, 0x65, 0x3e, 0xda, 0xae, 0x8f, 0x3f,
  0xb9, 0x36, 0x8b, 0x3f, 0xc9, 0x32, 0x32, 0x3f, 0x04, 0x90, 0x16, 0x3f,
  0xc8, 0xaa, 0x8a, 0x3e, 0x41, 0xb4, 0x8c, 0xbe, 0x73, 0x76, 0xea, 0x3d,
  0xa6, 0xe3, 0x84, 0xbe, 0x51, 0xe7, 0x0b, 0xbd, 0x27, 0x89, 0x47, 0x3e,
  0x18, 0x4a, 0xe0, 0x3d, 0x90, 0x15, 0x0a, 0x3f, 0x20, 0x76, 0xa5, 0x3f,
  0xc6, 0xad, 0xa0, 0x3e, 0x68, 0x40, 0xf5, 0xbe, 0x65, 0xb4, 0x17, 0x3f,
  0xa0, 0x93, 0x03, 0xbf, 0x44, 0xae, 0x0e, 0xbe, 0x36, 0x06, 0x6b, 0xbe,
  0x10, 0x40, 0x72, 0x3d, 0x72, 0x40, 0x6f, 0x3d, 0x98, 0x7f, 0x9a, 0xbd,
  0x5a, 0x54, 0x51, 0xbf, 0x44, 0xef, 0x13, 0x3f, 0x09, 0xf4, 0x27, 0xbd,
  0xc3, 0x55, 0xad, 0xbe, 0x33, 0x0b, 0xb3, 0xbd, 0xa4, 0xa0, 0xa1, 0xbe,
  0x46, 0x59, 0x8b, 0x3e, 0x6c, 0x53, 0xa5, 0x3e, 0xe5, 0x91, 0x66, 0x3d,
  0xdc, 0xfc, 0x4b, 0x3e, 0x04, 0x04, 0xb8, 0x3d, 0x30, 0xf5, 0x14, 0xbf,
  0x28, 0xf3, 0x48, 0x3f, 0x09, 0x19, 0xbf, 0x3e, 0xcf, 0xe1, 0x49, 0xbe,
  0x4c, 0x5d, 0x0d, 0xbe, 0x02, 0xdb, 0xe0, 0xbe, 0xf6, 0x32, 0x80, 0x3b,
  0x55, 0xce, 0x8e, 0xbe, 0x83, 0x14, 0x51, 0xbd, 0xcc, 0x8f, 0x39, 0xbd,
  0x34, 0x1f, 0xbb, 0xbd, 0x0d, 0xe0, 0xf4, 0xbe, 0x78, 0x8b, 0xd9, 0xbe,
  0x9c, 0x50, 0x00, 0xbf, 0x0a, 0x09, 0x81, 0xbf, 0x84, 0xd2, 0x18, 0x3f,
  0xe2, 0x34, 0x7b, 0xbe, 0x2b, 0x73, 0xec, 0x3c, 0xcc, 0x20, 0x1d, 0xbe,
  0xa1, 0x17, 0x90, 0x3e, 0xe1, 0x33, 0x90, 0x3c, 0xe1, 0x3b, 0x9e, 0xbe,
  0xf8, 0xff, 0xba, 0xbe, 0xcd, 0x79, 0x9c, 0xbf, 0xf8, 0x74, 0x01, 0xbf,
  0x7d, 0x0a, 0x4c, 0xbf, 0x08, 0xeb, 0xcf, 0xbd, 0x56, 0xbe, 0x41, 0x3e,
  0xea, 0x3b, 0x44, 0xbd, 0xd5, 0x04, 0x90, 0x3e, 0x47, 0x7d, 0x46, 0xbd,
  0x85, 0xd3, 0xc1, 0xbe, 0xf0, 0x20, 0x9f, 0x3c, 0x89, 0x15, 0xbb, 0xbe,
  0x2e, 0x17, 0xa2, 0xbf, 0xe3, 0x17, 0x8a, 0xbf, 0xe2, 0x19, 0x8b, 0xbd,
  0xbb, 0xca, 0x05, 0x3e, 0x49, 0xa7, 0x08, 0x3f, 0xad, 0xe0, 0x62, 0xbe,
  0xcf, 0x79, 0xfd, 0x3e, 0x4f, 0x7e, 0x08, 0x3e, 0x8e, 0xb2, 0x17, 0x3e,
  0xce, 0x12, 0x6d, 0x3e, 0xf3, 0x4d, 0x2c, 0xbe, 0xfe, 0xce, 0x94, 0xbe,
  0xb2, 0xc7, 0x96, 0xbe, 0x22, 0x41, 0xa5, 0x3f, 0xab, 0x02, 0x82, 0x3e,
  0x7e, 0xed, 0xd2, 0x3e, 0xc7, 0x25, 0x26, 0xbe, 0x70, 0x13, 0xe5, 0x3e,
  0x40, 0xa4, 0x60, 0x3e, 0x23, 0xbe, 0x44, 0xbd, 0x18, 0x7f, 0x87, 0xbd,
  0xd1, 0x3d, 0x7c, 0x3f, 0x07, 0xc8, 0x4f, 0x3f, 0x52, 0x36, 0x2a, 0x3f,
  0xae, 0x41, 0xb7, 0x3f, 0x61, 0x89, 0x9b, 0x3e, 0xe3, 0xbc, 0x74, 0xbe,
  0xf4, 0x59, 0x6e, 0xbe, 0xbc, 0x15, 0x4c, 0xbe, 0x3c, 0x95, 0xec, 0xbc,
  0x2e, 0xfd, 0x4b, 0xbe, 0x82, 0x6f, 0x75, 0x3e, 0x33, 0x06, 0xfc, 0x3e,
  0xa6, 0x0b, 0x81, 0x3f, 0x5b, 0x65, 0x53, 0x3f, 0xb1, 0x39, 0x70, 0x3e,
  0xb3, 0x5a, 0x7f, 0xbe, 0xf3, 0x3d, 0xc3, 0xbe, 0x8a, 0x52, 0x3b, 0x3e,
  0xc7, 0x5c, 0x23, 0xbf, 0x8c, 0x5a, 0x89, 0x3d, 0x4e, 0x8c, 0x4d, 0x3e,
  0x00, 0x2d, 0xa9, 0xbb, 0x73, 0xbe, 0xac, 0x3d, 0xf7, 0x1c, 0x31, 0x3f,
  0x4d, 0x38, 0x24, 0xbe, 0x4d, 0xb1, 0x89, 0x3f, 0xc6, 0x48, 0x6a, 0x3e,
  0x64, 0xd7, 0x04, 0x3f, 0x55, 0xbf, 0x86, 0x3c, 0xdf, 0x39, 0x59, 0xbe,
  0x13, 0x12, 0x3e, 0x3d, 0xf0, 0x5f, 0x05, 0x3d, 0x6f, 0x47, 0x01, 0xbe,
  0xcd, 0xc5, 0x9a, 0x3f, 0x2b, 0xcb, 0x03, 0x3f, 0x1f, 0x13, 0xf7, 0x3e,
  0x8f, 0x9f, 0x22, 0x3f, 0xa7, 0x4d, 0xb5, 0xbe, 0x3a, 0x71, 0x20, 0x3d,
  0x65, 0xc8, 0x28, 0xbc, 0xb8, 0x66, 0xc7, 0xbe, 0x41, 0x46, 0xa5, 0xbc,
  0x60, 0x43, 0x89, 0x3e, 0xe9, 0xae, 0x8a, 0x3e, 0xe4, 0x06, 0x52, 0x3f,
  0xa7, 0xb5, 0xae, 0xbe, 0xd7, 0x83, 0x02, 0xbf, 0xb0, 0xa8, 0xc2, 0x3f,
  0x6a, 0xe2, 0x99, 0x3e, 0xdf, 0x1e, 0xd5, 0x3f, 0x4b, 0x36, 0xc0, 0x3b,
  0x3c, 0x18, 0xc0, 0x3d, 0xce, 0xb4, 0x80, 0xbc, 0x22, 0x76, 0xfa, 0x3e,
  0x52, 0x12, 0x42, 0x3e, 0x4a, 0x23, 0xde, 0x3f, 0x17, 0xcc, 0x38, 0x3f,
  0xcd, 0xf0, 0x83, 0x3f, 0x34, 0xec, 0x67, 0xbf, 0x74, 0x03, 0xc9, 0xbe,
  0x27, 0xf3, 0x2b, 0xbf, 0xdb, 0xd2, 0xcc, 0x3d, 0x0c, 0x14, 0x23, 0x3f,
  0xc2, 0x84, 0xe6, 0xbd, 0x64, 0x4d, 0xdb, 0x3d, 0xe0, 0x6d, 0x30, 0xbc,
  0xb3, 0xa6, 0x77, 0xbf, 0x91, 0x3e, 0x02, 0xbf, 0x64, 0x4d, 0xaf, 0x3d,
  0x48, 0xe7, 0xb0, 0xbe, 0xe7, 0x67, 0x3a, 0x3e, 0x8f, 0x02, 0x8e, 0x3e,
  0x98, 0x6b, 0xd7, 0x3d, 0xa1, 0x7f, 0x42, 0x3e, 0xf5, 0x51, 0xc6, 0xbc,
  0x58, 0xa8, 0xc7, 0x3e, 0xaa, 0x75, 0xd3, 0xbd, 0x2b, 0xd5, 0x8f, 0xbf,
  0x65, 0x3f, 0x1b, 0xbe, 0x6f, 0x28, 0x22, 0x3e, 0xcb, 0xb3, 0x80, 0xbe,
  0x45, 0xbd, 0x0e, 0xbe, 0x23, 0x0d, 0xd3, 0xbd, 0xab, 0xb1, 0x27, 0x3e,
  0x03, 0x60, 0x2b, 0x3e, 0xdc, 0xc8, 0x1d, 0x3e, 0x1c, 0x0b, 0x0c, 0x3e,
  0xa7, 0x1e, 0x8d, 0xbe, 0xff, 0x9c, 0xa8, 0xbe, 0x0c, 0x90, 0x0b, 0xbf,
  0xd9, 0xb7, 0xab, 0xbe, 0x9c, 0x9c, 0xba, 0x3d, 0xf9, 0xe0, 0xd3, 0x3c,
  0xca, 0x4e, 0xed, 0xbd, 0xc4, 0x2d, 0xb8, 0xbd, 0x6d, 0x82, 0xb9, 0x3b,
  0xf1, 0x89, 0x92, 0x3e, 0xe4, 0xc2, 0x3c, 0x3d, 0x96, 0xf7, 0x6d, 0x3e,
  0xb0, 0x6c, 0x13, 0x3e, 0x40, 0x39, 0x1d, 0x3e, 0x13, 0x2a, 0x67, 0xbe,
  0x53, 0x15, 0x29, 0x3e, 0xad, 0xb9, 0xff, 0x3b, 0x00, 0x8f, 0x7e, 0xbe,
  0xaa, 0x4d, 0x3c, 0xbe, 0x13, 0x7b, 0xd2, 0x3e, 0x71, 0x6d, 0x70, 0x3e,
  0x00, 0x42, 0xcd, 0x3e, 0x5d, 0x1b, 0x83, 0x3e, 0xc6, 0xc5, 0xfe, 0x3d,
  0x53, 0xa6, 0x87, 0x3e, 0x2c, 0xd8, 0x23, 0xbd, 0xd2, 0x9d, 0x51, 0xbe,
  0x01, 0x9b, 0x4e, 0xbb, 0x93, 0x07, 0xce, 0x3d, 0x84, 0x6b, 0x53, 0xbe,
  0x51, 0x86, 0x43, 0x3d, 0x0b, 0xf1, 0xb3, 0x3e, 0xc4, 0x98, 0xc8, 0xbd,
  0x3e, 0x64, 0x4f, 0x3e, 0x49, 0x57, 0xfa, 0xbe, 0xfc, 0xd1, 0x96, 0xbc,
  0xe0, 0x43, 0xb7, 0xbe, 0xa5, 0x57, 0xe1, 0xbe, 0xc8, 0xda, 0x8c, 0x3e,
  0xa4, 0x01, 0xfe, 0xbd, 0x89, 0x35, 0xa6, 0xbe, 0x2f, 0xe3, 0xff, 0x3d,
  0x66, 0xfe, 0xda, 0xbd, 0x3c, 0xb1, 0xb5, 0x3d, 0x3c, 0x61, 0x14, 0xbe,
  0xc6, 0xa9, 0x0b, 0xbf, 0x29, 0x9b, 0x33, 0xbc, 0xf1, 0x40, 0x84, 0xbe,
  0x0a, 0x22, 0x09, 0xbf, 0x61, 0xf6, 0xdc, 0xbd, 0xd6, 0x40, 0x81, 0x3e,
  0x15, 0x4d, 0x86, 0x3e, 0xa6, 0x2c, 0xd7, 0xbd, 0x57, 0xff, 0x34, 0x3e,
  0xb1, 0xd8, 0x51, 0xbd, 0xdb, 0xb2, 0xa2, 0xbe, 0x4e, 0x6a, 0x3e, 0xbf,
  0xee, 0x7e, 0x96, 0xbd, 0x1b, 0x93, 0x21, 0x3e, 0xca, 0x20, 0xc0, 0xbd,
  0xac, 0x17, 0x37, 0x3d, 0xd6, 0xb7, 0xa9, 0xbe, 0x7d, 0x80, 0x09, 0xbd,
  0x1e, 0xdc, 0x28, 0xbe, 0xb7, 0x52, 0x9d, 0x3d, 0xb7, 0x4b, 0x9f, 0x3e,
  0x1c, 0x14, 0x0f, 0xbe, 0xb2, 0x33, 0xd6, 0xbe, 0xe0, 0x5e, 0x08, 0xbf,
  0xf8, 0x23, 0xdc, 0xbe, 0x43, 0x42, 0xe2, 0x3e, 0x01, 0x0e, 0xa0, 0xbd,
  0x5f, 0xe4, 0xcb, 0xbb, 0x95, 0xd4, 0x32, 0x3e, 0x84, 0xac, 0x2b, 0xbd,
  0xea, 0x42, 0xd8, 0xbd, 0x99, 0x8c, 0x0b, 0x3e, 0xd8, 0x01, 0x86, 0xbd,
  0x1f, 0x31, 0x0b, 0x3e, 0x51, 0xd6, 0xb5, 0xbd, 0xc6, 0x66, 0x9e, 0x3e,
  0x82, 0x6e, 0x28, 0x3f, 0x43, 0xa6, 0x9a, 0x3e, 0x99, 0x55, 0x02, 0xbc,
  0x93, 0x96, 0x38, 0xbe, 0x8d, 0x7d, 0x19, 0xbe, 0xfa, 0xf9, 0x1b, 0x3d,
  0x13, 0x38, 0xe5, 0x3d, 0x30, 0xae, 0xb9, 0x3d, 0x4b, 0x95, 0xa1, 0x3e,
  0x16, 0xb9, 0x7c, 0xbf, 0x8e, 0xce, 0xac, 0xbe, 0xd3, 0x9f, 0x0d, 0x3f,
  0x6a, 0xaa, 0xda, 0xbe, 0x47, 0x84, 0x04, 0xbe, 0xd3, 0xee, 0xbc, 0x3e,
  0xf2, 0x9b, 0x12, 0x3f, 0xe7, 0xea, 0x6c, 0x3d, 0xb2, 0xc9, 0xb6, 0x3e,
  0x47, 0x03, 0x17, 0xbe, 0xc4, 0xe0, 0xc8, 0xbe, 0xb6, 0x41, 0x03, 0xbe,
  0x34, 0x2a, 0xb8, 0x3e, 0xf3, 0x41, 0x8e, 0xbf, 0x07, 0x44, 0x2b, 0xbc,
  0x3f, 0xe1, 0x50, 0x3e, 0xe7, 0x44, 0x5c, 0x3c, 0x89, 0xb7, 0x97, 0x3e,
  0xe2, 0xad, 0x38, 0xbe, 0xae, 0x40, 0x1b, 0x3e, 0x7a, 0xa9, 0x52, 0x3e,
  0x4d, 0x7c, 0x7d, 0xbf, 0x68, 0xdc, 0x9d, 0xbf, 0x24, 0x9e, 0x66, 0xbf,
  0x4b, 0xf2, 0x23, 0xbf, 0x76, 0xda, 0x10, 0xbd, 0x24, 0x3b, 0xcf, 0x3d,
  0xe6, 0x37, 0xad, 0x3c, 0xb2, 0xab, 0xa3, 0x3d, 0xdf, 0xda, 0x0b, 0xbd,
  0xe5, 0x5c, 0xce, 0xbc, 0x50, 0xf7, 0x10, 0xbe, 0x3a, 0x56, 0x8b, 0xbf,
  0x26, 0x37, 0x82, 0xbf, 0x61, 0x36, 0xd6, 0xbe, 0x02, 0x93, 0x27, 0xbd,
  0xf9, 0x86, 0xe2, 0x3d, 0x31, 0x73, 0x26, 0x3f, 0x27, 0xb1, 0x11, 0x3e,
  0xc9, 0x82, 0x86, 0x3e, 0xab, 0x04, 0x38, 0xbd, 0x6b, 0x1b, 0x9f, 0xbd,
  0x00, 0xfc, 0xaa, 0x3c, 0x22, 0x95, 0x0d, 0xbd, 0x7b, 0xe3, 0x24, 0xbf,
  0x0f, 0xb6, 0xab, 0x3e, 0x7c, 0x26, 0xa0, 0xbe, 0x23, 0x72, 0xf4, 0x3e,
  0xdb, 0x74, 0x19, 0x3e, 0x90, 0xca, 0x54, 0x3e, 0x28, 0xb5, 0x2d, 0x3d,
  0x88, 0x95, 0x79, 0x3e, 0x74, 0xda, 0x7a, 0xbe, 0x5a, 0x8a, 0x28, 0xbe,
  0x70, 0x91, 0x07, 0xbf, 0x7e, 0x7d, 0x98, 0xbe, 0x26, 0x2f, 0x54, 0xbe,
  0x0f, 0xeb, 0x18, 0x3e, 0xfb, 0x5b, 0x8a, 0x3d, 0x38, 0x38, 0x24, 0x3e,
  0x3f, 0x65, 0xc6, 0x3e, 0x41, 0x8c, 0xb7, 0x3c, 0x78, 0x84, 0x83, 0x3c,
  0xc0, 0xce, 0xb9, 0x3e, 0xe6, 0xa0, 0x52, 0x3e, 0x58, 0xf1, 0xb1, 0xbe,
  0x6f, 0x97, 0xfc, 0xbe, 0xa1, 0x28, 0x59, 0xbe, 0xd5, 0x09, 0x99, 0xbb,
  0xc5, 0xcb, 0x66, 0xbe, 0x59, 0xe7, 0x82, 0xbe, 0x6a, 0x7d, 0xb7, 0xbd,
  0xcb, 0x55, 0xf8, 0x3e, 0x26, 0x5d, 0xcf, 0x3c, 0x48, 0xb4, 0x2d, 0xbc,
  0x60, 0xb3, 0xfa, 0x3c, 0xb4, 0xbc, 0x8c, 0xbf, 0x2e, 0x28, 0x86, 0xbf,
  0x5d, 0x54, 0xe8, 0xbe, 0x12, 0x0d, 0xdf, 0x3e, 0x43, 0x3e, 0xab, 0x3e,
  0x35, 0xa4, 0xa9, 0x3e, 0x06, 0x47, 0xc4, 0x3d, 0x72, 0x05, 0x14, 0x3e,
  0xdd, 0x73, 0x87, 0x3d, 0x51, 0xe7, 0x02, 0x3d, 0xaa, 0xa0, 0x22, 0xbe,
  0x83, 0x01, 0x0b, 0x3f, 0x39, 0x11, 0x3f, 0x3f, 0xec, 0x12, 0xed, 0x3e,
  0x46, 0x66, 0x0d, 0x3f, 0xe6, 0x96, 0x11, 0xbe, 0x3c, 0xfa, 0x34, 0xbd,
  0xd4, 0x9a, 0xf8, 0xbd, 0x12, 0xdc, 0x38, 0x3d, 0x8e, 0x71, 0xe2, 0x3d,
  0x45, 0xd9, 0xfa, 0x3c, 0xf6, 0x6c, 0x8e, 0xbe, 0x14, 0x6c, 0x69, 0x3f,
  0x47, 0x63, 0x36, 0x3f, 0xe1, 0x88, 0x7d, 0x3e, 0x49, 0x48, 0x92, 0x3e,
  0xa8, 0x2d, 0x0b, 0x3f, 0x9b, 0x96, 0xa3, 0x3e, 0x7d, 0x6e, 0x95, 0x3d,
  0xd9, 0x31, 0xd1, 0xbe, 0x85, 0x92, 0xa9, 0x3d, 0xd7, 0x2b, 0x9f, 0x3e,
  0x35, 0xa9, 0x9e, 0x3e, 0xa3, 0xa4, 0x04, 0x3f, 0x70, 0x58, 0x51, 0x3f,
  0x59, 0xc2, 0x2f, 0x3e, 0x9e, 0x30, 0x44, 0xbf, 0x0b, 0xf8, 0xab, 0xbd,
  0xd2, 0x13, 0x73, 0xbf, 0xe9, 0x76, 0x93, 0xbe, 0x5e, 0x1a, 0x95, 0x3e,
  0x5c, 0x0d, 0x0f, 0xbe, 0xb8, 0x31, 0x63, 0x3d, 0x22, 0x6c, 0x72, 0x3e,
  0x3a, 0xe2, 0x87, 0xbf, 0xcf, 0x39, 0x7b, 0xbe, 0x4a, 0xc5, 0x40, 0x3b,
  0xa8, 0x6b, 0x74, 0xbe, 0x6e, 0xe0, 0xce, 0x3c, 0xcf, 0xc1, 0x1e, 0xbf,
  0x3f, 0x1e, 0xa9, 0xbc, 0xe9, 0xd8, 0xaf, 0x3e, 0xec, 0x5e, 0xfd, 0x3d,
  0x1b, 0x1a, 0x23, 0x3d, 0x9c, 0xa7, 0x33, 0xbe, 0x8e, 0x9e, 0x69, 0xbf,
  0xbf, 0x41, 0x20, 0x3e, 0x9f, 0x2e, 0x4e, 0x3e, 0x87, 0x26, 0x17, 0xbf,
  0xf0, 0x45, 0x26, 0xbf, 0x31, 0x80, 0x56, 0xbe, 0x61, 0x71, 0x78, 0xbe,
  0xcb, 0x35, 0xe4, 0xbe, 0xea, 0xff, 0x1e, 0x3e, 0xc0, 0x3f, 0x80, 0x3c,
  0x4a, 0x8b, 0x31, 0x3e, 0x96, 0x14, 0x1e, 0xbf, 0xfd, 0xd9, 0x20, 0xbf,
  0x3a, 0x66, 0x33, 0xbf, 0x0c, 0xd0, 0x5b, 0x3f, 0x22, 0x4b, 0xaa, 0x3c,
  0x2a, 0x08, 0xac, 0x3e, 0x4f, 0x24, 0x21, 0x3e, 0x1b, 0x19, 0x49, 0x3e,
  0xbf, 0x44, 0xa6, 0x3d, 0x71, 0x7f, 0x62, 0xbd, 0xb2, 0x83, 0x67, 0xbe,
  0x8c, 0x16, 0xeb, 0x3a, 0x37, 0x02, 0x5c, 0x3d, 0xa8, 0x53, 0x4c, 0x3e,
  0xba, 0x52, 0x8d, 0x3f, 0xa7, 0xbc, 0xa9, 0x3e, 0xb5, 0x6c, 0x28, 0x3f,
  0xd4, 0x97, 0x8b, 0xbe, 0xdf, 0x9b, 0x61, 0x3d, 0x28, 0x4c, 0xf8, 0xbd,
  0xbf, 0xb5, 0xa2, 0xbd, 0xf8, 0xac, 0x8d, 0xbe, 0x61, 0x96, 0x80, 0x3f,
  0x6f, 0x36, 0xea, 0x3e, 0x9d, 0x52, 0xa4, 0x3e, 0x29, 0x01, 0x63, 0x3f,
  0x5b, 0xc0, 0x3f, 0x3f, 0x2e, 0x45, 0xd8, 0x3e, 0x37, 0x29, 0xde, 0xbd,
  0xb7, 0x63, 0x90, 0x3e, 0xe0, 0x32, 0x42, 0x3d, 0xae, 0x4e, 0x10, 0x3e,
  0xa0, 0x38, 0xa8, 0xbc, 0xd7, 0xe1, 0x6d, 0x3f, 0xf2, 0x05, 0x8d, 0x3f,
  0xc8, 0x3e, 0x90, 0x3f, 0xc7, 0xbe, 0x5a, 0x3f, 0xa3, 0xa4, 0x9e, 0x3e,
  0x90, 0xc8, 0x18, 0x3f, 0xc4, 0x5f, 0x8a, 0x3e, 0x51, 0xbb, 0xb0, 0x3e,
  0xac, 0xeb, 0xa9, 0x3d, 0xde, 0x07, 0xc9, 0x3d, 0x7a, 0x26, 0x92, 0xbe,
  0x5f, 0x93, 0x93, 0x3f, 0xd4, 0x61, 0x8d, 0x3f, 0x33, 0x44, 0x02, 0x3f,
  0x0d, 0x00, 0x9b, 0x3f, 0x84, 0xcc, 0xb5, 0x3d, 0x4b, 0xe9, 0xaf, 0x3d,
  0xdd, 0x3d, 0xcb, 0x3e, 0x99, 0x95, 0x44, 0xbd, 0x94, 0xf9, 0x95, 0x3c,
  0xfa, 0x77, 0xbf, 0xbe, 0xc8, 0x77, 0xc2, 0x3d, 0x68, 0x56, 0x90, 0x3f,
  0xb0, 0x10, 0x8a, 0x3e, 0xca, 0x21, 0x0b, 0x3f, 0xaa, 0xd7, 0x5e, 0x3f,
  0x11, 0x58, 0x85, 0xbe, 0x52, 0x90, 0x82, 0x3e, 0x17, 0x0e, 0x84, 0x3e,
  0xdd, 0xb0, 0xa7, 0xbe, 0x2e, 0x4f, 0xb6, 0x3e, 0x9b, 0x74, 0x98, 0xbe,
  0x1c, 0x2d, 0xa8, 0xbe, 0x69, 0x17, 0x85, 0x3e, 0x4f, 0x8a, 0x19, 0x3f,
  0xf9, 0xb5, 0x32, 0x3f, 0x46, 0xfe, 0xff, 0xff, 0x10, 0x00, 0x00, 0x00,
  0x05, 0x00, 0x00, 0x00, 0x14, 0x00, 0x00, 0x00, 0x5c, 0x00, 0x00, 0x00,
  0x02, 0x00, 0x00, 0x00, 0x14, 0x00, 0x00, 0x00, 0x21, 0x00, 0x00, 0x00,
  0x47, 0x00, 0x00, 0x00, 0x73, 0x65, 0x71, 0x75, 0x65, 0x6e, 0x74, 0x69,
  0x61, 0x6c, 0x2f, 0x64, 0x65, 0x6e, 0x73, 0x65, 0x2f, 0x4d, 0x61, 0x74,
  0x4d, 0x75, 0x6c, 0x3b, 0x53, 0x74, 0x61, 0x74, 0x65, 0x66, 0x75, 0x6c,
  0x50, 0x61, 0x72, 0x74, 0x69, 0x74, 0x69, 0x6f, 0x6e, 0x65, 0x64, 0x43,
  0x61, 0x6c, 0x6c, 0x2f, 0x73, 0x65, 0x71, 0x75, 0x65, 0x6e, 0x74, 0x69,
  0x61, 0x6c, 0x2f, 0x64, 0x65, 0x6e, 0x73, 0x65, 0x2f, 0x4d, 0x61, 0x74,
  0x4d, 0x75, 0x6c, 0x00, 0x74, 0xfe, 0xff, 0xff, 0x4e, 0xff, 0xff, 0xff,
  0x04, 0x00, 0x00, 0x00, 0x10, 0x00, 0x00, 0x00, 0x21, 0xad, 0xe7, 0x3e,
  0x4a, 0x95, 0x54, 0xbe, 0xb7, 0x5e, 0x7a, 0x3e, 0xdc, 0x0f, 0xd8, 0xbe,
  0xd2, 0xfe, 0xff, 0xff, 0x10, 0x00, 0x00, 0x00, 0x04, 0x00, 0x00, 0x00,
  0x10, 0x00, 0x00, 0x00, 0x1c, 0x00, 0x00, 0x00, 0x01, 0x00, 0x00, 0x00,
  0x04, 0x00, 0x00, 0x00, 0x09, 0x00, 0x00, 0x00, 0x75, 0x6e, 0x6b, 0x6e,
  0x6f, 0x77, 0x6e, 0x5f, 0x34, 0x00, 0x00, 0x00, 0xc0, 0xfe, 0xff, 0xff,
  0x9a, 0xff, 0xff, 0xff, 0x04, 0x00, 0x00, 0x00, 0x28, 0x00, 0x00, 0x00,
  0xae, 0x01, 0xa0, 0x3c, 0x6e, 0xbd, 0x40, 0xbc, 0x67, 0xb0, 0x01, 0x3f,
  0xd0, 0x59, 0x45, 0x3f, 0xf7, 0xe1, 0xf9, 0x3d, 0x83, 0x3e, 0x7b, 0xbc,
  0xe0, 0xdc, 0x14, 0x3e, 0xa8, 0x2f, 0x10, 0xbe, 0xec, 0xac, 0x1e, 0x3f,
  0xbf, 0xa7, 0xd6, 0xbd, 0x36, 0xff, 0xff, 0xff, 0x10, 0x00, 0x00, 0x00,
  0x03, 0x00, 0x00, 0x00, 0x10, 0x00, 0x00, 0x00, 0x1c, 0x00, 0x00, 0x00,
  0x01, 0x00, 0x00, 0x00, 0x0a, 0x00, 0x00, 0x00, 0x09, 0x00, 0x00, 0x00,
  0x75, 0x6e, 0x6b, 0x6e, 0x6f, 0x77, 0x6e, 0x5f, 0x32, 0x00, 0x00, 0x00,
  0x6c, 0xff, 0xff, 0xff, 0x00, 0x00, 0x06, 0x00, 0x08, 0x00, 0x04, 0x00,
  0x06, 0x00, 0x00, 0x00, 0x04, 0x00, 0x00, 0x00, 0x50, 0x00, 0x00, 0x00,
  0x31, 0x5e, 0x45, 0xba, 0xed, 0x5e, 0x83, 0x3e, 0x1b, 0x88, 0x71, 0xbe,
  0x7a, 0x25, 0x39, 0x3c, 0x1c, 0x31, 0x0b, 0x3f, 0xb3, 0x03, 0x9f, 0x3e,
  0x4e, 0xc8, 0x76, 0xbc, 0xf7, 0x9b, 0xad, 0x3e, 0x11, 0x49, 0xef, 0x3e,
  0x39, 0xf1, 0x0e, 0xbc, 0xd7, 0xae, 0x42, 0x3f, 0x95, 0xbc, 0x30, 0xbe,
  0x9e, 0x47, 0xe6, 0x3d, 0x1e, 0x96, 0x6f, 0x3c, 0x5c, 0x3b, 0x54, 0x3f,
  0x07, 0xa6, 0x03, 0x3f, 0x91, 0x9f, 0x35, 0xbc, 0x09, 0xc9, 0x57, 0x3f,
  0x82, 0xc3, 0xc4, 0x3d, 0xa0, 0xc3, 0xef, 0xbb, 0xca, 0xff, 0xff, 0xff,
  0x10, 0x00, 0x00, 0x00, 0x02, 0x00, 0x00, 0x00, 0x10, 0x00, 0x00, 0x00,
  0x20, 0x00, 0x00, 0x00, 0x01, 0x00, 0x00, 0x00, 0x14, 0x00, 0x00, 0x00,
  0x09, 0x00, 0x00, 0x00, 0x75, 0x6e, 0x6b, 0x6e, 0x6f, 0x77, 0x6e, 0x5f,
  0x30, 0x00, 0x00, 0x00, 0x04, 0x00, 0x06, 0x00, 0x04, 0x00, 0x00, 0x00,
  0x00, 0x00, 0x0e, 0x00, 0x14, 0x00, 0x04, 0x00, 0x00, 0x00, 0x08, 0x00,
  0x0c, 0x00, 0x10, 0x00, 0x0e, 0x00, 0x00, 0x00, 0x10, 0x00, 0x00, 0x00,
  0x01, 0x00, 0x00, 0x00, 0x14, 0x00, 0x00, 0x00, 0x1c, 0x00, 0x00, 0x00,
  0x02, 0x00, 0x00, 0x00, 0x01, 0x00, 0x00, 0x00, 0x21, 0x00, 0x00, 0x00,
  0x07, 0x00, 0x00, 0x00, 0x78, 0x5f, 0x69, 0x6e, 0x70, 0x75, 0x74, 0x00,
  0xfc, 0xff, 0xff, 0xff, 0x04, 0x00, 0x04, 0x00, 0x04, 0x00, 0x00, 0x00
};
unsigned int trained_tflite_len = 5580;
